<blank>	0
<unk>	0
s	-3.15284
▁the	-3.2801
▁and	-3.91109
▁a	-3.92808
ed	-3.96002
▁of	-4.01665
▁to	-4.02649
t	-4.09307
e	-4.27906
d	-4.36128
n	-4.38294
▁in	-4.38605
ing	-4.43438
r	-4.44349
▁i	-4.60783
▁he	-4.70708
y	-4.72848
o	-4.7862
▁was	-4.81014
▁	-4.83729
▁that	-4.866
▁it	-4.88347
c	-4.94385
ly	-4.96943
m	-5.08251
▁his	-5.12261
er	-5.12647
'	-5.13121
▁for	-5.13292
p	-5.14607
▁be	-5.20393
g	-5.25099
▁had	-5.28798
▁with	-5.29107
▁you	-5.31533
b	-5.3261
▁as	-5.32846
in	-5.4211
▁her	-5.4339
or	-5.44705
u	-5.47263
a	-5.47567
▁s	-5.47811
re	-5.5192
▁not	-5.52756
le	-5.52794
▁but	-5.54016
▁she	-5.54377
i	-5.55529
al	-5.57745
▁me	-5.59154
▁is	-5.63018
▁re	-5.64868
▁on	-5.65668
▁so	-5.66469
▁at	-5.66998
h	-5.70245
en	-5.70849
st	-5.73728
l	-5.75451
ll	-5.76993
w	-5.77421
v	-5.78275
k	-5.78302
on	-5.78741
▁him	-5.8157
▁no	-5.85528
▁c	-5.87127
▁we	-5.87608
it	-5.90256
f	-5.90498
▁my	-5.90724
▁all	-5.91292
▁by	-5.91778
▁have	-5.9238
ri	-5.93776
ar	-5.9405
▁this	-5.9515
▁were	-5.95808
▁de	-5.96102
▁they	-5.96619
▁which	-5.96675
ce	-6.00328
il	-6.00711
▁from	-6.01339
th	-6.02529
▁one	-6.06017
▁said	-6.06578
ent	-6.06724
ve	-6.11655
ch	-6.13577
ter	-6.13902
▁f	-6.15655
▁an	-6.16007
li	-6.21066
es	-6.21717
▁or	-6.22088
ck	-6.22684
us	-6.22715
ur	-6.24258
ic	-6.24833
ion	-6.25287
▁t	-6.26785
▁st	-6.27978
▁when	-6.2841
▁there	-6.28681
▁g	-6.28925
ation	-6.31116
▁their	-6.32344
at	-6.33962
▁pa	-6.34186
▁would	-6.34347
▁do	-6.35124
ne	-6.35143
an	-6.37143
▁co	-6.37402
▁what	-6.38611
▁who	-6.38933
te	-6.38979
▁la	-6.39422
▁out	-6.44311
▁if	-6.45294
▁b	-6.46242
ir	-6.46744
▁up	-6.47986
▁been	-6.49035
▁are	-6.50255
▁them	-6.50332
ad	-6.50582
ra	-6.51045
ol	-6.52478
ver	-6.53894
▁will	-6.55723
▁man	-6.56362
▁e	-6.58388
ow	-6.59067
▁could	-6.59354
el	-6.59363
▁mo	-6.60916
▁w	-6.61527
la	-6.62917
▁pro	-6.62923
tion	-6.6297
ment	-6.64214
▁un	-6.65374
▁ma	-6.65762
▁sp	-6.66976
▁d	-6.67995
ge	-6.68779
▁mi	-6.70296
▁con	-6.70407
▁some	-6.7043
▁more	-6.70508
▁into	-6.7097
▁p	-6.71129
▁bo	-6.7136
able	-6.71998
▁ra	-6.72662
▁ro	-6.7292
id	-6.73246
▁did	-6.74022
lo	-6.75682
▁ex	-6.75757
▁o	-6.75762
as	-6.75927
▁time	-6.7643
▁other	-6.77309
ul	-6.77919
▁us	-6.78153
▁than	-6.79019
pp	-6.79034
▁like	-6.79103
▁go	-6.79342
est	-6.79932
▁know	-6.80657
▁very	-6.8143
ate	-6.8161
ity	-6.82396
▁now	-6.8392
mp	-6.84597
ut	-6.85023
age	-6.85514
▁dis	-6.85582
un	-6.85901
▁little	-6.86242
▁fa	-6.8682
ful	-6.88299
▁your	-6.88526
▁about	-6.88803
ke	-6.89201
▁day	-6.89227
▁has	-6.89805
ish	-6.89876
▁su	-6.89899
▁can	-6.89966
ant	-6.90844
▁li	-6.91033
▁ho	-6.91484
▁over	-6.91676
▁lo	-6.92298
ence	-6.92576
▁see	-6.92585
ry	-6.93588
▁any	-6.93708
ng	-6.94244
▁then	-6.95549
ance	-6.97439
▁po	-6.9845
ous	-6.9912
▁ca	-6.99212
▁after	-6.999
▁upon	-7.00033
▁great	-7.00153
▁well	-7.00657
▁sa	-7.00709
▁cr	-7.01182
om	-7.01791
ness	-7.02345
▁ba	-7.02449
ive	-7.0253
▁two	-7.03514
et	-7.03758
▁sh	-7.03955
is	-7.04047
ist	-7.04111
▁only	-7.05022
▁say	-7.06603
▁th	-7.06745
▁our	-7.06863
▁le	-7.07232
ies	-7.08207
vi	-7.0848
me	-7.0849
▁hand	-7.0914
▁di	-7.09181
▁should	-7.09415
ure	-7.09493
▁down	-7.09643
▁even	-7.09646
▁made	-7.09706
▁mar	-7.10564
ti	-7.10709
▁before	-7.10728
▁cha	-7.10811
x	-7.11571
▁miss	-7.11781
▁old	-7.12089
▁good	-7.13873
▁long	-7.14291
he	-7.14939
▁pre	-7.1503
per	-7.15135
▁ri	-7.15914
▁k	-7.16178
am	-7.16588
▁such	-7.17137
▁bu	-7.17472
▁ha	-7.1794
▁ru	-7.18429
ine	-7.18884
▁way	-7.19238
ers	-7.20528
▁these	-7.20632
▁came	-7.20804
▁gra	-7.21296
▁come	-7.21566
ight	-7.22042
▁how	-7.22494
▁br	-7.22523
mo	-7.22593
▁hu	-7.22721
▁never	-7.23027
im	-7.23062
de	-7.23368
▁mister	-7.23572
▁much	-7.24817
ty	-7.24888
▁where	-7.25151
▁en	-7.25456
▁back	-7.26176
▁men	-7.27219
ff	-7.27364
▁must	-7.28061
▁take	-7.28809
▁ga	-7.28826
▁ne	-7.2953
op	-7.2967
ious	-7.30746
▁house	-7.31005
▁just	-7.31527
▁pe	-7.31631
der	-7.32753
um	-7.34404
ting	-7.3455
led	-7.34554
▁look	-7.34633
▁own	-7.34875
▁think	-7.35505
▁thought	-7.3569
lu	-7.36099
ther	-7.36214
▁again	-7.36623
▁first	-7.37025
▁may	-7.38064
▁make	-7.38701
▁off	-7.38837
▁da	-7.38965
▁am	-7.38992
▁might	-7.39734
ard	-7.40934
▁himself	-7.42111
che	-7.42341
▁du	-7.42946
▁vi	-7.43035
less	-7.43924
▁through	-7.43935
▁sc	-7.45178
▁part	-7.46012
▁fi	-7.46073
▁pi	-7.46097
▁mu	-7.46839
▁went	-7.4699
man	-7.47393
▁place	-7.47485
ie	-7.47513
▁pri	-7.48586
▁tra	-7.4927
ble	-7.49407
▁give	-7.49494
▁get	-7.49768
▁ta	-7.49864
▁every	-7.5041
▁car	-7.50612
ated	-7.50951
▁love	-7.51234
▁pass	-7.51855
▁va	-7.52169
▁life	-7.52481
▁head	-7.52761
ward	-7.52809
▁com	-7.53148
▁far	-7.534
ling	-7.5369
▁without	-7.53942
▁eyes	-7.54073
▁sha	-7.54264
▁those	-7.545
co	-7.54892
if	-7.54902
▁most	-7.54943
▁wi	-7.55321
▁away	-7.56237
j	-7.56945
▁pu	-7.58019
▁many	-7.58096
▁young	-7.58294
▁don	-7.58732
▁wa	-7.59029
▁new	-7.59693
qui	-7.60228
ian	-7.60539
▁still	-7.60726
ac	-7.60993
▁imp	-7.60994
▁under	-7.61039
our	-7.61264
▁here	-7.62061
▁night	-7.62315
ise	-7.62732
und	-7.62858
▁found	-7.6296
▁tru	-7.63002
wa	-7.63068
▁ear	-7.63359
▁last	-7.63419
▁face	-7.63508
▁nothing	-7.63712
▁while	-7.64023
▁tell	-7.64068
▁people	-7.65296
▁though	-7.66792
ig	-7.67205
▁being	-7.67489
▁work	-7.67605
▁yet	-7.69318
▁three	-7.69576
▁right	-7.69977
▁word	-7.70112
▁mean	-7.70184
▁sea	-7.7043
▁jo	-7.70926
be	-7.71155
ton	-7.71409
▁room	-7.73459
ia	-7.73758
▁je	-7.73765
ial	-7.73872
ha	-7.74174
▁asked	-7.74258
▁saw	-7.74268
up	-7.75054
ach	-7.75197
▁heart	-7.75454
▁put	-7.75465
▁same	-7.75491
▁sta	-7.75688
▁ever	-7.75875
▁want	-7.76626
▁gu	-7.77328
▁si	-7.77892
▁em	-7.7812
▁another	-7.78263
▁comp	-7.78762
▁left	-7.78993
▁shall	-7.79389
▁arm	-7.7947
▁father	-7.79732
▁girl	-7.80008
▁open	-7.80605
ress	-7.81215
▁took	-7.82048
▁per	-7.82233
▁once	-7.83245
▁always	-7.83439
▁ja	-7.83476
side	-7.83853
▁near	-7.83903
▁fo	-7.83949
▁seemed	-7.84123
▁end	-7.84145
▁bar	-7.84355
▁war	-7.85316
▁king	-7.8541
▁moment	-7.85584
▁let	-7.85701
▁cont	-7.85834
ma	-7.86046
▁friend	-7.86054
▁why	-7.86065
▁told	-7.86883
ary	-7.87
que	-7.87464
▁mind	-7.87519
▁door	-7.88073
▁lu	-7.88443
ical	-7.89281
tic	-7.8941
ak	-7.90213
▁heard	-7.90303
▁ju	-7.90397
▁fe	-7.9054
▁mon	-7.90998
▁light	-7.91024
▁looked	-7.91062
na	-7.91312
▁set	-7.91972
▁mother	-7.92073
▁na	-7.92365
ite	-7.92429
▁soon	-7.92626
▁because	-7.92825
act	-7.92973
▁home	-7.93102
▁flo	-7.9378
▁side	-7.94051
▁yes	-7.9406
ign	-7.9407
▁answer	-7.94339
▁something	-7.94688
▁read	-7.95304
tain	-7.95875
▁live	-7.95924
▁name	-7.96614
▁par	-7.96856
▁feel	-7.97639
▁find	-7.97672
▁things	-7.98234
▁world	-7.98311
▁fl	-7.98658
rry	-7.99297
▁high	-7.99552
▁thing	-7.99718
▁going	-7.99771
▁return	-8.00629
▁certain	-8.00992
▁rep	-8.01005
▁water	-8.01694
▁wish	-8.0181
▁al	-8.02032
▁el	-8.02074
▁appear	-8.02632
▁exc	-8.02698
▁knew	-8.03002
▁woman	-8.03003
▁rest	-8.03042
▁sl	-8.03332
▁show	-8.03576
▁each	-8.04314
▁cla	-8.04983
▁having	-8.05062
▁act	-8.05415
▁few	-8.05641
▁against	-8.0565
▁care	-8.06008
ugh	-8.0607
▁began	-8.06398
▁kind	-8.0678
▁person	-8.06784
▁better	-8.0683
▁hard	-8.07053
▁sir	-8.07696
▁follow	-8.08116
light	-8.08174
▁enough	-8.08506
▁boy	-8.08531
▁present	-8.08726
▁voice	-8.0949
▁ten	-8.09605
▁pl	-8.09638
▁four	-8.09892
▁years	-8.10366
▁conf	-8.10818
▁believe	-8.11275
▁white	-8.11582
▁whole	-8.12535
land	-8.12545
ship	-8.14414
▁hundred	-8.14537
▁hope	-8.14579
▁got	-8.15136
▁between	-8.15161
▁morning	-8.15162
ily	-8.15214
▁called	-8.15229
▁walk	-8.15377
▁done	-8.15449
▁prince	-8.16426
▁felt	-8.16444
▁close	-8.16865
▁seen	-8.16901
▁whi	-8.16979
▁hour	-8.17347
▁power	-8.17709
▁fra	-8.17918
▁ti	-8.18405
▁state	-8.18712
▁herself	-8.18771
▁tea	-8.18997
▁six	-8.19546
▁enter	-8.19653
▁half	-8.1986
▁however	-8.20082
▁among	-8.20088
▁talk	-8.20526
▁land	-8.20807
▁toward	-8.21194
▁also	-8.21233
▁oh	-8.21379
▁wonder	-8.214
▁perhaps	-8.21621
▁turned	-8.21826
▁course	-8.22069
▁replied	-8.22073
▁full	-8.22135
▁point	-8.22553
▁quite	-8.22744
▁order	-8.22896
▁poor	-8.22932
▁speak	-8.23647
▁both	-8.23851
▁myself	-8.23871
▁does	-8.24719
▁matter	-8.24804
▁keep	-8.25017
▁sat	-8.25262
▁small	-8.25943
▁fall	-8.26555
▁sun	-8.26968
▁gave	-8.27505
▁tree	-8.27939
▁almo	-8.28188
▁sure	-8.29106
▁count	-8.30156
▁har	-8.30198
▁turn	-8.30738
▁stand	-8.30745
▁sent	-8.30767
▁together	-8.31437
▁whom	-8.31711
▁less	-8.31736
ible	-8.31741
▁strange	-8.3217
▁child	-8.32409
▁until	-8.32441
▁since	-8.32444
▁cap	-8.33352
mber	-8.33672
gue	-8.33748
▁bra	-8.3379
▁continu	-8.34171
chi	-8.34715
▁anything	-8.34939
▁feet	-8.35124
▁general	-8.35181
▁next	-8.35185
▁dark	-8.35198
▁fact	-8.3536
▁stood	-8.35437
▁black	-8.35694
▁laugh	-8.3592
▁brought	-8.35949
▁dear	-8.36603
▁bri	-8.36708
▁leave	-8.36725
▁round	-8.375
▁large	-8.37516
▁consider	-8.37765
▁wood	-8.38025
▁along	-8.38038
▁help	-8.381
▁art	-8.38209
ude	-8.38832
▁play	-8.39089
▁seem	-8.39225
▁horse	-8.39354
▁sudden	-8.39876
▁five	-8.39973
▁step	-8.40025
▁call	-8.40103
▁master	-8.40214
▁nature	-8.40415
▁fla	-8.40525
day	-8.41137
▁john	-8.41228
▁fire	-8.4189
▁money	-8.42066
▁cur	-8.42237
▁wait	-8.42693
▁fear	-8.42812
▁rather	-8.42943
▁twenty	-8.43133
▁short	-8.44006
▁low	-8.44008
▁indeed	-8.44628
▁idea	-8.44911
▁case	-8.45311
▁start	-8.45469
▁country	-8.45486
▁interest	-8.46515
▁gro	-8.46552
ities	-8.46758
▁seven	-8.46786
▁cried	-8.47175
▁sound	-8.4734
▁cra	-8.47394
▁question	-8.47936
▁uncle	-8.47954
ham	-8.48837
▁grow	-8.50022
▁reason	-8.50583
▁whose	-8.51062
▁clear	-8.51187
▁gone	-8.51403
▁death	-8.51792
▁themselves	-8.52072
▁change	-8.52305
▁lady	-8.5247
▁vo	-8.52692
▁direct	-8.52985
▁remain	-8.5329
▁wife	-8.53301
ative	-8.53578
▁thousand	-8.53592
▁gentle	-8.53601
▁behind	-8.53899
▁fair	-8.54185
▁doctor	-8.54207
▁often	-8.54756
▁plan	-8.55215
▁around	-8.5576
▁till	-8.55953
▁free	-8.56181
▁brother	-8.56705
▁women	-8.56705
▁ground	-8.56758
▁doubt	-8.57019
▁children	-8.57986
▁letter	-8.58153
▁spirit	-8.5862
▁hold	-8.59288
▁window	-8.59703
▁already	-8.59913
▁happen	-8.59915
▁book	-8.5993
▁possibl	-8.60253
▁street	-8.60573
▁manner	-8.61
▁became	-8.61227
▁thus	-8.61289
▁fell	-8.61468
▁watch	-8.61572
▁foot	-8.61957
▁fine	-8.62044
▁sign	-8.6215
▁cannot	-8.62224
▁express	-8.62225
▁body	-8.62636
▁town	-8.62955
▁alone	-8.63946
▁lord	-8.64333
▁everything	-8.6494
▁smile	-8.65302
▁strong	-8.6562
▁remember	-8.65966
▁expect	-8.66313
▁held	-8.66536
▁really	-8.66716
▁eye	-8.66923
▁above	-8.67012
▁beautiful	-8.67362
▁second	-8.67362
▁qua	-8.68064
▁sleep	-8.68069
aught	-8.68202
▁eight	-8.68329
▁suppose	-8.68423
▁fellow	-8.68931
▁rose	-8.69377
▁human	-8.69386
▁broke	-8.69499
▁big	-8.69587
▁quick	-8.69858
▁cause	-8.70405
▁minute	-8.70577
▁deep	-8.70924
▁sometimes	-8.71305
▁draw	-8.71309
▁spoke	-8.71313
▁hair	-8.71323
▁observ	-8.71671
▁dream	-8.7241
▁captain	-8.72461
▁understand	-8.72778
▁kept	-8.72779
▁year	-8.72984
▁dress	-8.73502
▁gold	-8.73578
▁sister	-8.73594
▁object	-8.73898
▁least	-8.74292
▁become	-8.74653
▁learn	-8.75048
▁family	-8.75412
▁please	-8.75415
▁whether	-8.76175
▁making	-8.76205
pose	-8.76927
▁sort	-8.77653
▁mountain	-8.77722
▁green	-8.78131
▁either	-8.78901
▁office	-8.78985
▁itself	-8.79295
▁thou	-8.79312
▁church	-8.79691
▁different	-8.80089
▁wind	-8.80458
▁several	-8.80489
▁daughter	-8.80491
▁grand	-8.80603
▁story	-8.81761
▁else	-8.81839
▁possess	-8.82105
▁number	-8.82514
▁hill	-8.82514
▁visit	-8.82563
▁ski	-8.82748
▁imagin	-8.83748
▁cold	-8.8385
▁port	-8.85082
▁bill	-8.85123
▁tro	-8.85813
▁subject	-8.8584
▁trouble	-8.86264
▁glad	-8.86294
▁ven	-8.86313
▁kill	-8.8717
▁desire	-8.87178
▁immediate	-8.87977
▁school	-8.87977
▁week	-8.88062
▁listen	-8.88855
▁snow	-8.88901
▁therefore	-8.8972
▁chance	-8.89762
▁court	-8.89913
▁danger	-8.90164
▁blue	-8.90176
▁wild	-8.90261
ably	-8.90327
▁business	-8.90603
▁garden	-8.90606
▁eighteen	-8.90609
▁happy	-8.91053
▁across	-8.91494
▁except	-8.915
▁occasion	-8.91942
▁touch	-8.92579
▁perfect	-8.92845
▁character	-8.933
▁difficult	-8.933
▁english	-8.933
▁hid	-8.93783
though	-8.94354
▁husband	-8.94676
▁quiet	-8.94679
▁ought	-8.95144
▁remark	-8.95604
▁view	-8.95624
▁suffer	-8.96075
▁sense	-8.96089
▁carried	-8.96563
▁discover	-8.97013
▁regard	-8.97022
▁common	-8.97025
▁effect	-8.98441
▁secret	-8.98441
▁america	-8.99406
▁produc	-8.99407
▁added	-8.99459
▁affect	-8.99891
▁respect	-9.00868
▁success	-9.00868
▁breath	-9.00869
▁taking	-9.00893
▁fro	-9.00905
▁natural	-9.01361
▁surprise	-9.01361
▁brown	-9.01371
▁south	-9.0222
▁particular	-9.02353
▁public	-9.02353
▁purpose	-9.02355
▁pretty	-9.02363
▁indian	-9.02423
▁sweet	-9.02854
▁safe	-9.02951
▁equal	-9.03356
▁received	-9.03356
▁suggest	-9.04369
▁comfort	-9.04369
▁usual	-9.04384
▁figure	-9.04882
▁field	-9.04888
▁prepar	-9.0489
▁tried	-9.04968
bility	-9.05919
▁command	-9.06436
▁plain	-9.06437
▁blood	-9.06946
▁beyond	-9.06948
▁living	-9.06978
▁bank	-9.06986
▁england	-9.07471
▁promise	-9.07478
▁position	-9.08525
▁advanc	-9.08543
▁front	-9.08566
▁service	-9.1067
▁treat	-9.10762
▁pleasure	-9.11213
▁chief	-9.11214
▁companion	-9.11215
▁experience	-9.1176
▁struck	-9.1176
▁declar	-9.11762
▁agree	-9.12033
hood	-9.12109
▁worth	-9.12323
▁silence	-9.12873
▁instant	-9.12909
▁beauty	-9.13418
▁enjoy	-9.14538
ified	-9.14592
▁inform	-9.15104
▁crowd	-9.15119
▁account	-9.15671
▁servant	-9.15671
▁cloth	-9.15679
▁condition	-9.17395
▁attention	-9.17396
▁throw	-9.17409
▁travel	-9.17526
▁approach	-9.17977
▁mouth	-9.1858
▁picture	-9.1915
▁yourself	-9.20337
▁neither	-9.20338
▁opinion	-9.20935
▁glance	-9.21544
▁accept	-9.22144
▁thick	-9.2216
▁third	-9.22162
▁east	-9.224
▁christ	-9.22754
▁company	-9.2276
▁profess	-9.23367
▁thirty	-9.23368
▁length	-9.23369
▁afraid	-9.24606
▁cloud	-9.24606
▁fresh	-9.24607
▁drive	-9.24738
▁affair	-9.25231
▁evident	-9.25231
▁wound	-9.25237
▁queen	-9.25241
▁habit	-9.25241
▁utter	-9.25251
▁stopped	-9.2586
▁heaven	-9.25861
▁shout	-9.25869
▁recogni	-9.26492
▁complete	-9.26504
▁pray	-9.26511
▁fifty	-9.27132
▁piece	-9.27155
▁exclaimed	-9.2777
▁attempt	-9.2777
▁repeat	-9.29177
▁instead	-9.29721
▁escape	-9.30376
▁explain	-9.30376
▁government	-9.30376
▁soldier	-9.30376
▁animal	-9.30384
▁drag	-9.30389
▁sitting	-9.31056
▁result	-9.31709
▁break	-9.32383
▁impossible	-9.33052
▁property	-9.34418
▁measure	-9.34424
▁write	-9.34645
▁madame	-9.35107
▁pocket	-9.3511
▁scarce	-9.35112
▁according	-9.35801
▁circumstance	-9.35801
▁london	-9.35802
▁attack	-9.35802
▁determin	-9.36501
▁happiness	-9.37205
▁valley	-9.37205
▁afternoon	-9.37205
▁perceiv	-9.37228
▁effort	-9.37914
▁french	-9.37915
▁attend	-9.37919
▁isabel	-9.38628
▁village	-9.38631
▁society	-9.39348
▁major	-9.39351
ordinary	-9.39352
▁admit	-9.39353
▁quarter	-9.39353
▁pleasant	-9.40072
▁strength	-9.40072
▁wrong	-9.40073
▁straight	-9.40075
▁fortune	-9.40076
▁necessary	-9.40802
▁influence	-9.41538
▁dinner	-9.4154
hook	-9.41738
▁giving	-9.42279
▁secur	-9.42295
▁author	-9.43778
▁battle	-9.43778
▁oblig	-9.44534
▁easily	-9.44535
▁conversation	-9.45298
▁terrible	-9.45298
▁dread	-9.45308
▁blow	-9.45314
▁especially	-9.46067
▁heavy	-9.46068
mission	-9.46397
▁journey	-9.47623
▁anxious	-9.47625
▁probably	-9.48412
▁simple	-9.48413
▁address	-9.50006
▁represent	-9.50811
▁handsome	-9.50813
▁decided	-9.51624
▁concern	-9.51625
q	-10.3828
